TRT-100500-EntropyCalibration2
images: 3b66eddc
/model.0/conv/Conv_output_0: 3dbb1daa
/model.0/act/Sigmoid_output_0: 3c010a14
/model.0/act/Mul_output_0: 3d86957f
/model.1/conv/Conv_output_0: 3e88215f
/model.1/act/Sigmoid_output_0: 3c010a14
/model.1/act/Mul_output_0: 3e8cc0f7
/model.2/cv1/conv/Conv_output_0: 3e45eca4
/model.2/cv1/act/Sigmoid_output_0: 3c010a14
/model.2/cv1/act/Mul_output_0: 3dc0e14b
/model.23/Split_1_output_0: 3dd6b202
/model.22/cv2/act/Mul_output_0: 3cd21eb8
/model.22/m.0/m/m.1/cv2/conv/Conv_output_0: 3d822b8f
ONNXTRT_Broadcast_572_output: 3e9d4449
/model.23/Expand_2_output_0: 3e1d4449
/model.23/cv3.2/cv3.2.1/cv3.2.1.1/act/Sigmoid_output_0: 3c010a14
/model.2/Split_output_0: 3e032db8
/model.23/cv3.2/cv3.2.1/cv3.2.1.0/act/Sigmoid_output_0: 3c01c0c4
/model.23/Slice_2_output_0: 3d3f3d5c
/model.23/Sigmoid_output_0: 3a891c2f
/model.2/Split_output_1: 3ce512dd
/model.2/m.0/cv1/conv/Conv_output_0: 3d7f9fe5
/model.2/m.0/cv1/act/Sigmoid_output_0: 3c0029ee
/model.2/m.0/cv1/act/Mul_output_0: 3cea0937
/model.2/m.0/cv2/conv/Conv_output_0: 3e2358e8
/model.2/m.0/cv2/act/Sigmoid_output_0: 3c010a14
/model.2/m.0/cv2/act/Mul_output_0: 3dc771fe
/model.2/m.0/Add_output_0: 3e31eaee
/model.2/Concat_output_0: 3e189105
/model.2/cv2/conv/Conv_output_0: 3e7f4e9a
/model.2/cv2/act/Sigmoid_output_0: 3c07bf77
/model.2/cv2/act/Mul_output_0: 3d11daa2
/model.3/conv/Conv_output_0: 3d4b4a27
/model.3/act/Sigmoid_output_0: 3bffe5bb
/model.3/act/Mul_output_0: 3ce7186c
/model.4/cv1/conv/Conv_output_0: 3d2bc214
/model.4/cv1/act/Sigmoid_output_0: 3c042207
/model.4/cv1/act/Mul_output_0: 3ce53c06
/model.23/cv3.1/cv3.1.1/cv3.1.1.0/conv/Conv_output_0: 3d840cc3
/model.23/dfl/Softmax_output_0: 3bdb2a3d
/model.23/cv2.2/cv2.2.0/act/Sigmoid_output_0: 3c00c45b
(Unnamed Layer* 540) [Constant]_output: 0
/model.23/Range_4_output_0: 3d912b57
/model.23/dfl/conv/Conv_output_0: 3dece471
/model.4/Split_output_0: 3cd16038
/model.23/Reshape_10_output_0: 3e9f4871
/model.23/Reshape_2_output_0: 3d83c6ad
/model.23/dfl/Reshape_1_output_0: 3dece471
/model.4/Split_output_1: 3ce58fad
/model.4/m.0/cv1/conv/Conv_output_0: 3d083a24
/model.4/m.0/cv1/act/Sigmoid_output_0: 3bf9cb05
/model.4/m.0/cv1/act/Mul_output_0: 3cb13503
/model.4/m.0/cv2/conv/Conv_output_0: 3d694730
/model.4/m.0/cv2/act/Sigmoid_output_0: 3c014085
/model.4/m.0/cv2/act/Mul_output_0: 3d26fd0d
/model.4/m.0/Add_output_0: 3d3bd0d6
/model.4/Concat_output_0: 3d249c39
/model.4/cv2/conv/Conv_output_0: 3d5c3697
/model.4/cv2/act/Sigmoid_output_0: 3c010193
/model.4/cv2/act/Mul_output_0: 3c24fd80
/model.5/conv/Conv_output_0: 3d37bc6f
/model.5/act/Sigmoid_output_0: 3c005dca
/model.5/act/Mul_output_0: 3c9ac5ca
/model.6/cv1/conv/Conv_output_0: 3d6bd1c6
/model.6/cv1/act/Sigmoid_output_0: 3c04f987
/model.6/cv1/act/Mul_output_0: 3d02a3b2
/model.23/Reshape_14_output_0: 3e1d4449
/model.23/Range_5_output_0: 3d912b57
ONNXTRT_Broadcast_272_output: 3e010a14
ONNXTRT_ShapeShuffle_267_output: 0
/model.23/cv3.2/cv3.2.1/cv3.2.1.0/act/Mul_output_0: 3d663cee
/model.23/Add_4_output_0: 3e1d4449
/model.6/Split_output_0: 3cc069d9
/model.23/Add_3_output_0: 3e1d4449
/model.22/m.0/m/m.1/cv1/act/Sigmoid_output_0: 3bfffef3
/model.23/Sub_1_output_0: 3e499369
/model.6/Split_output_1: 3d02a3b2
/model.6/m.0/cv1/conv/Conv_output_0: 3ce4ce11
/model.6/m.0/cv2/conv/Conv_output_0: 3d6fa477
/model.6/m.0/cv1/act/Sigmoid_output_0: 3c01eb6b
/model.6/m.0/cv2/act/Sigmoid_output_0: 3c011000
/model.6/m.0/cv1/act/Mul_output_0: 3ce4f7a0
/model.6/m.0/cv2/act/Mul_output_0: 3d11895b
/model.6/m.0/m/m.0/cv1/conv/Conv_output_0: 3d7a658a
/model.6/m.0/m/m.0/cv1/act/Sigmoid_output_0: 3c0b84bf
/model.6/m.0/m/m.0/cv1/act/Mul_output_0: 3cd3a96e
/model.6/m.0/m/m.0/cv2/conv/Conv_output_0: 3d6ff5ff
/model.6/m.0/m/m.0/cv2/act/Sigmoid_output_0: 3c0376aa
/model.6/m.0/m/m.0/cv2/act/Mul_output_0: 3ce76e11
/model.6/m.0/m/m.0/Add_output_0: 3d90234b
/model.6/m.0/m/m.1/cv1/conv/Conv_output_0: 3d69038a
/model.6/m.0/m/m.1/cv1/act/Sigmoid_output_0: 3c002bed
/model.6/m.0/m/m.1/cv1/act/Mul_output_0: 3cb27258
/model.6/m.0/m/m.1/cv2/conv/Conv_output_0: 3da6de2a
/model.6/m.0/m/m.1/cv2/act/Sigmoid_output_0: 3c00f089
/model.6/m.0/m/m.1/cv2/act/Mul_output_0: 3d8f2613
/model.6/m.0/m/m.1/Add_output_0: 3dbde363
/model.6/m.0/Concat_output_0: 3d95344d
/model.6/m.0/cv3/conv/Conv_output_0: 3d80be52
/model.6/m.0/cv3/act/Sigmoid_output_0: 3c073713
/model.6/m.0/cv3/act/Mul_output_0: 3d01b89f
/model.6/Concat_output_0: 3d01c3cf
/model.6/cv2/conv/Conv_output_0: 3d5f1ca2
/model.6/cv2/act/Sigmoid_output_0: 3c00b4a2
/model.6/cv2/act/Mul_output_0: 3c9a8d85
/model.7/conv/Conv_output_0: 3d6dc3f2
/model.7/act/Sigmoid_output_0: 3c00f926
/model.7/act/Mul_output_0: 3ca5537a
/model.8/cv1/conv/Conv_output_0: 3d95fecd
/model.8/cv1/act/Sigmoid_output_0: 3c00dde3
/model.8/cv1/act/Mul_output_0: 3ce8f381
/model.23/dfl/Softmax_output: 3bdb2a3d
/model.23/Concat_7_output_0: 3de3884b
/model.23/cv3.2/cv3.2.1/cv3.2.1.1/act/Mul_output_0: 3dc6282c
/model.23/cv3.2/cv3.2.0/cv3.2.0.0/act/Sigmoid_output_0: 3c05c882
/model.23/Slice_3_output_0: 3d8da5bc
/model.23/cv2.2/cv2.2.1/act/Sigmoid_output_0: 3c010a14
/model.8/Split_output_0: 3d01a76a
/model.23/Range_2_output_0: 3e193bf8
/model.23/cv3.2/cv3.2.2/Conv_output_0: 3dbb9425
/model.23/Slice_output_0: 3ded150c
/model.8/Split_output_1: 3ce8f381
/model.8/m.0/cv1/conv/Conv_output_0: 3d5c2355
/model.8/m.0/cv2/conv/Conv_output_0: 3d89e4f6
/model.8/m.0/cv1/act/Sigmoid_output_0: 3c06b885
/model.8/m.0/cv2/act/Sigmoid_output_0: 3c0635d2
/model.8/m.0/cv1/act/Mul_output_0: 3d12992d
/model.8/m.0/cv2/act/Mul_output_0: 3d427463
/model.8/m.0/m/m.0/cv1/conv/Conv_output_0: 3d6cf355
/model.8/m.0/m/m.0/cv1/act/Sigmoid_output_0: 3c00f5cf
/model.8/m.0/m/m.0/cv1/act/Mul_output_0: 3cd431e7
/model.8/m.0/m/m.0/cv2/conv/Conv_output_0: 3d8e1f0f
/model.8/m.0/m/m.0/cv2/act/Sigmoid_output_0: 3c00ab3e
/model.8/m.0/m/m.0/cv2/act/Mul_output_0: 3d10efbf
/model.8/m.0/m/m.0/Add_output_0: 3d64060a
/model.8/m.0/m/m.1/cv1/conv/Conv_output_0: 3d855017
/model.8/m.0/m/m.1/cv1/act/Sigmoid_output_0: 3c0101b1
/model.8/m.0/m/m.1/cv1/act/Mul_output_0: 3d10b81a
/model.8/m.0/m/m.1/cv2/conv/Conv_output_0: 3ddd8f0f
/model.8/m.0/m/m.1/cv2/act/Sigmoid_output_0: 3c075ead
/model.8/m.0/m/m.1/cv2/act/Mul_output_0: 3d92e801
/model.8/m.0/m/m.1/Add_output_0: 3decb55a
/model.8/m.0/Concat_output_0: 3dbebb4e
/model.8/m.0/cv3/conv/Conv_output_0: 3d9a817c
/model.8/m.0/cv3/act/Sigmoid_output_0: 3c0105c4
/model.8/m.0/cv3/act/Mul_output_0: 3d4050d7
/model.8/Concat_output_0: 3d003be7
/model.8/cv2/conv/Conv_output_0: 3d91fa3a
/model.8/cv2/act/Sigmoid_output_0: 3c08e7ae
/model.8/cv2/act/Mul_output_0: 3d007ae4
/model.9/cv1/conv/Conv_output_0: 3d826e11
/model.9/cv1/act/Sigmoid_output_0: 3c00bffe
/model.9/cv1/act/Mul_output_0: 3d669af5
/model.9/m/MaxPool_output_0: 3d669af5
/model.9/m_1/MaxPool_output_0: 3d669af5
/model.9/m_2/MaxPool_output_0: 3d669af5
/model.9/Concat_output_0: 3d8fc1ff
/model.9/cv2/conv/Conv_output_0: 3d54a08c
/model.9/cv2/act/Sigmoid_output_0: 3bff9d98
/model.9/cv2/act/Mul_output_0: 3c91551a
/model.10/cv1/conv/Conv_output_0: 3daca331
/model.10/cv1/act/Sigmoid_output_0: 3c0213d6
/model.10/cv1/act/Mul_output_0: 3d0145b5
/model.23/cv3.2/cv3.2.0/cv3.2.0.0/conv/Conv_output_0: 3d33501b
ONNXTRT_Broadcast_264_output: 3b810a14
ONNXTRT_Broadcast_387_output: 3c810a14
/model.23/Concat_31_output_0: 402fa6cd
/model.23/Mul_6_output_0: 3dbf3d5c
/model.23/Concat_29_output_0: 3eab8d3e
/model.10/Split_output_0: 3d0fd620
/model.23/cv2.2/cv2.2.1/act/Mul_output_0: 3e140644
/model.23/Div_1_output_0: 3eab8d3e
/model.23/Reshape_22_output_0: 402fa6cd
/model.10/Split_output_1: 3d0145b5
/model.22/m.0/m/m.1/cv2/act/Mul_output_0: 3d41b49f
/model.23/Reshape_15_output_0: 3e1d4449
/model.10/m/m.0/attn/qkv/conv/Conv_output_0: 3d5a7917
/model.22/m.0/m/m.0/cv2/act/Mul_output_0: 3d23cdfe
/model.23/cv3.2/cv3.2.1/cv3.2.1.1/conv/Conv_output_0: 3e460d1a
/model.23/cv3.2/cv3.2.0/cv3.2.0.1/conv/Conv_output_0: 3d4696a5
ONNXTRT_ShapeShuffle_423_output: 3c010a14
/model.22/m.0/cv3/act/Mul_output_0: 3d019992
/model.22/Concat_output_0: 3cea67b3
/model.23/cv3.2/cv3.2.0/cv3.2.0.1/act/Mul_output_0: 3d118e13
/model.23/cv4.2/cv4.2.1/conv/Conv_output_0: 3daad493
/model.22/m.0/cv3/conv/Conv_output_0: 3d8fdd55
ONNXTRT_ShapeShuffle_431_output: 0
ONNXTRT_ShapeShuffle_413_output: 3c010a14
/model.22/cv2/act/Sigmoid_output_0: 3c073a0c
/model.23/cv4.2/cv4.2.0/conv/Conv_output_0: 3d44e6e6
/model.22/m.0/m/m.1/cv2/act/Sigmoid_output_0: 3c00e73b
/model.23/Concat_15_output_0: 3e9f4871
/model.10/m/m.0/attn/Reshape_output_0: 3d5a7917
/model.22/cv1/conv/Conv_output_0: 3d58611a
/model.22/m.0/m/m.0/cv2/conv/Conv_output_0: 3d7a5cc7
/model.23/Mul_5_output_0: 407070c8
/model.22/m.0/m/m.0/Add_output_0: 3d64f3ec
/model.23/cv3.2/cv3.2.1/cv3.2.1.0/conv/Conv_output_0: 3d823b29
/model.23/cv4.2/cv4.2.0/act/Mul_output_0: 3d24dfec
/model.10/m/m.0/attn/Split_output_0: 3d21351d
/model.23/Concat_6_output_0: 3df1fc93
/model.22/m.0/m/m.0/cv1/act/Mul_output_0: 3cc070ff
/model.23/cv3.1/cv3.1.2/Conv_output_0: 3ddc14f2
/model.10/m/m.0/attn/Split_output_1: 3d1e87db
/model.23/cv3.1/cv3.1.1/cv3.1.1.1/act/Mul_output_0: 3d97d84d
/model.22/m.0/m/m.0/cv1/conv/Conv_output_0: 3d47ad33
/model.23/cv3.1/cv3.1.1/cv3.1.1.1/act/Sigmoid_output_0: 3c010a14
/model.10/m/m.0/attn/Split_output_2: 3d5b1461
/model.10/m/m.0/attn/Transpose_output_0: 3d21351d
/model.10/m/m.0/attn/Reshape_2_output_0: 3d5b1461
/model.10/m/m.0/attn/MatMul_output_0: 3f38baa1
/model.10/m/m.0/attn/pe/conv/Conv_output_0: 3d50ff00
/model.10/m/m.0/attn/Constant_6_output_0_output: 3ab67d3d
ONNXTRT_Broadcast_output: 3ab67d3d
/model.10/m/m.0/attn/Mul_1_output_0: 3e029f86
/model.10/m/m.0/attn/Softmax_output: 3b264a8f
/model.10/m/m.0/attn/Softmax_output_0: 3b264a8f
/model.22/m.0/m/m.1/cv1/act/Mul_output_0: 3cb35f32
ONNXTRT_ShapeShuffle_249_output: 3c010a14
/model.10/m/m.0/attn/Transpose_1_output_0: 3b264a8f
/model.10/m/m.0/attn/MatMul_1_output_0: 3d0bede9
/model.10/m/m.0/attn/Reshape_1_output_0: 3d0bede9
/model.10/m/m.0/attn/Add_output_0: 3d55bc7e
/model.10/m/m.0/attn/proj/conv/Conv_output_0: 3d043838
/model.10/m/m.0/Add_output_0: 3da54d12
/model.10/m/m.0/ffn/ffn.0/conv/Conv_output_0: 3d4db48f
/model.10/m/m.0/ffn/ffn.0/act/Sigmoid_output_0: 3c017535
/model.10/m/m.0/ffn/ffn.0/act/Mul_output_0: 3cb39ba4
/model.10/m/m.0/ffn/ffn.1/conv/Conv_output_0: 3ceb09fc
/model.10/m/m.0/Add_1_output_0: 3db80a4f
/model.10/Concat_output_0: 3d29bfab
/model.10/cv2/conv/Conv_output_0: 3d6164a5
/model.10/cv2/act/Sigmoid_output_0: 3c00f635
/model.10/cv2/act/Mul_output_0: 3c895ec9
/model.11/Resize_output_0: 3c895ec9
/model.12/Concat_output_0: 3c9b2e7f
/model.13/cv1/conv/Conv_output_0: 3d847cec
/model.13/cv1/act/Sigmoid_output_0: 3c003b3f
/model.13/cv1/act/Mul_output_0: 3cd440b5
/model.22/m.0/cv1/act/Sigmoid_output_0: 3be03b28
/model.23/cv3.1/cv3.1.1/cv3.1.1.0/act/Mul_output_0: 3d90d292
/model.22/m.0/cv2/act/Sigmoid_output_0: 3c02d2ec
/model.22/m.0/cv1/conv/Conv_output_0: 3d087d8a
/model.22/m.0/cv1/act/Mul_output_0: 3c147f35
/model.23/Reshape_1_output_0: 3d8fd2ce
/model.13/Split_output_0: 3d11cec5
/model.23/cv4.1/cv4.1.1/act/Mul_output_0: 3d6908e9
/model.22/m.0/m/m.1/cv1/conv/Conv_output_0: 3d600ed8
/model.23/cv2.2/cv2.2.0/conv/Conv_output_0: 3d675439
/model.13/Split_output_1: 3c9b75cb
/model.13/m.0/cv1/conv/Conv_output_0: 3d7e18f4
/model.13/m.0/cv1/act/Sigmoid_output_0: 3c03bfd7
/model.13/m.0/cv1/act/Mul_output_0: 3cea5d80
/model.13/m.0/cv2/conv/Conv_output_0: 3dc9daa8
/model.13/m.0/cv2/act/Sigmoid_output_0: 3c10ce8c
/model.13/m.0/cv2/act/Mul_output_0: 3d6a3054
/model.13/m.0/Add_output_0: 3d90fd67
/model.13/Concat_output_0: 3d111019
/model.13/cv2/conv/Conv_output_0: 3d93f485
/model.13/cv2/act/Sigmoid_output_0: 3c025070
/model.13/cv2/act/Mul_output_0: 3c71ce24
/model.14/Resize_output_0: 3c71ce24
/model.15/Concat_output_0: 3c733ba7
/model.16/cv1/conv/Conv_output_0: 3d5ac44d
/model.16/cv1/act/Sigmoid_output_0: 3c005e37
/model.16/cv1/act/Mul_output_0: 3cb1835a
/model.23/cv3.1/cv3.1.0/cv3.1.0.1/act/Sigmoid_output_0: 3c03306e
/model.23/ConstantOfShape_1_output_0: 0
ONNXTRT_ShapeShuffle_259_output: 3c010a14
ONNXTRT_Broadcast_581_output: 3c810a14
/model.23/cv4.2/cv4.2.1/act/Mul_output_0: 3d40d12b
/model.23/Unsqueeze_14_output_0: 3d993bf8
/model.16/Split_output_0: 3ce6dc67
/model.22/m.0/Concat_output_0: 3d6617e5
/model.23/Reshape_20_output_0: 3d993bf8
output0: 40239231
/model.16/Split_output_1: 3c88ff07
/model.16/m.0/cv1/conv/Conv_output_0: 3d8a127e
/model.16/m.0/cv1/act/Sigmoid_output_0: 3c01b153
/model.16/m.0/cv1/act/Mul_output_0: 3cd4ebc8
/model.16/m.0/cv2/conv/Conv_output_0: 3db3de74
/model.16/m.0/cv2/act/Sigmoid_output_0: 3c0111a5
/model.16/m.0/cv2/act/Mul_output_0: 3d265f96
/model.16/m.0/Add_output_0: 3d8d81f9
/model.16/Concat_output_0: 3d010638
/model.16/cv2/conv/Conv_output_0: 3d9cfba3
/model.16/cv2/act/Sigmoid_output_0: 3c04fb03
/model.16/cv2/act/Mul_output_0: 3cd1c732
/model.17/conv/Conv_output_0: 3d5e2542
/model.22/cv1/act/Sigmoid_output_0: 3c00220a
/model.23/cv2.1/cv2.1.1/act/Sigmoid_output_0: 3c010a14
/model.23/cv4.0/cv4.0.0/conv/Conv_output_0: 3ddf893a
/model.23/cv2.0/cv2.0.0/conv/Conv_output_0: 3d801cf4
/model.23/cv3.0/cv3.0.0/cv3.0.0.0/conv/Conv_output_0: 3d0f24ba
/model.17/act/Sigmoid_output_0: 3c00ed12
/model.23/Unsqueeze_8_output_0: 3e9f4871
/model.23/cv4.0/cv4.0.0/act/Sigmoid_output_0: 3c01119a
/model.23/cv2.0/cv2.0.0/act/Sigmoid_output_0: 3c00a508
/model.23/cv3.0/cv3.0.0/cv3.0.0.0/act/Sigmoid_output_0: 3c02c357
/model.17/act/Mul_output_0: 3cd5e237
/model.23/cv4.0/cv4.0.0/act/Mul_output_0: 3d2522c2
/model.23/Slice_1_output_0: 3dd04957
/model.23/cv2.0/cv2.0.0/act/Mul_output_0: 3cb3f530
/model.23/cv3.0/cv3.0.0/cv3.0.0.0/act/Mul_output_0: 3cfd9dd3
/model.18/Concat_output_0: 3c5618eb
/model.23/cv4.0/cv4.0.1/conv/Conv_output_0: 3daf486a
/model.22/cv1/act/Mul_output_0: 3cd25571
/model.23/cv3.1/cv3.1.0/cv3.1.0.1/act/Mul_output_0: 3d015879
/model.23/Reshape_13_output_0: 3e1d4449
/model.23/cv2.0/cv2.0.1/conv/Conv_output_0: 3e6b6ef2
/model.23/cv3.0/cv3.0.0/cv3.0.0.1/conv/Conv_output_0: 3d27ba53
/model.22/cv2/conv/Conv_output_0: 3d849560
/model.23/cv4.1/cv4.1.1/act/Sigmoid_output_0: 3c01120c
/model.23/cv2.1/cv2.1.2/Conv_output_0: 3df4033a
/model.19/cv1/conv/Conv_output_0: 3d855737
/model.23/cv4.0/cv4.0.1/act/Sigmoid_output_0: 3c0111ae
/model.23/cv2.0/cv2.0.1/act/Sigmoid_output_0: 3c010a14
/model.23/cv3.0/cv3.0.0/cv3.0.0.1/act/Sigmoid_output_0: 3c00bc81
/model.19/cv1/act/Sigmoid_output_0: 3c00855d
/model.23/cv4.0/cv4.0.1/act/Mul_output_0: 3d6a96a6
/model.23/cv2.0/cv2.0.1/act/Mul_output_0: 3dd20b6b
/model.23/cv3.0/cv3.0.0/cv3.0.0.1/act/Mul_output_0: 3ce941a8
/model.19/cv1/act/Mul_output_0: 3cea4d9c
/model.23/cv4.0/cv4.0.2/Conv_output_0: 3d48cfb9
/model.23/cv2.0/cv2.0.2/Conv_output_0: 3dc38efe
/model.23/cv3.0/cv3.0.1/cv3.0.1.0/conv/Conv_output_0: 3d60e269
/model.23/Add_11_output_0: 3f2b8d3e
/model.23/Concat_27_output_0: 3e9f4871
/model.23/cv3.2/cv3.2.0/cv3.2.0.1/act/Sigmoid_output_0: 3c00cc1c
/model.22/m.0/m/m.0/cv2/act/Sigmoid_output_0: 3c00daae
/model.23/Add_5_output_0: 3e010a14
/model.23/Add_10_output_0: 3eb4e697
/model.19/Split_output_0: 3cea4d9c
/model.23/Concat_11_output_0: 3dd96fb7
/model.23/cv4.1/cv4.1.2/Conv_output_0: 3d8fd2ce
/model.23/Unsqueeze_7_output_0: 3e9f4871
/model.19/Split_output_1: 3ca450f7
/model.23/Reshape_output_0: 3d48cfb9
/model.23/cv3.0/cv3.0.1/cv3.0.1.0/act/Sigmoid_output_0: 3c0968f6
/model.19/m.0/cv1/conv/Conv_output_0: 3d48eb84
/model.23/cv3.0/cv3.0.1/cv3.0.1.0/act/Mul_output_0: 3d400562
/model.19/m.0/cv1/act/Sigmoid_output_0: 3c03c6ab
/model.23/cv3.0/cv3.0.1/cv3.0.1.1/conv/Conv_output_0: 3dd334d4
/model.19/m.0/cv1/act/Mul_output_0: 3ce8acfc
/model.23/cv3.0/cv3.0.1/cv3.0.1.1/act/Sigmoid_output_0: 3c011222
/model.19/m.0/cv2/conv/Conv_output_0: 3d91b01d
/model.23/cv3.0/cv3.0.1/cv3.0.1.1/act/Mul_output_0: 3d69fa41
/model.19/m.0/cv2/act/Sigmoid_output_0: 3c010e42
/model.23/cv3.0/cv3.0.2/Conv_output_0: 3ddbfc37
/model.19/m.0/cv2/act/Mul_output_0: 3d248c26
/model.23/Concat_5_output_0: 3dd76c2d
/model.19/m.0/Add_output_0: 3d8cf1f0
ONNXTRT_Broadcast_426_output: 3b810a14
/model.23/Add_6_output_0: 3d993bf8
/model.19/Concat_output_0: 3d011c6f
ONNXTRT_Broadcast_428_output: 3b810a14
/model.23/Expand_3_output_0: 3e1d4449
/model.23/Split_1_output_1: 3ddbfc37
/model.19/cv2/conv/Conv_output_0: 3d75e100
/model.23/cv2.2/cv2.2.2/Conv_output_0: 3de350bc
/model.23/cv2.2/cv2.2.1/conv/Conv_output_0: 3e1e05ef
/model.22/m.0/cv3/act/Sigmoid_output_0: 3c006562
/model.23/cv2.1/cv2.1.1/act/Mul_output_0: 3e1d9899
/model.19/cv2/act/Sigmoid_output_0: 3c007965
/model.23/Concat_20_output_0: 3e1d4449
/model.23/Squeeze_1_output_0_output: 3e010a14
/model.23/Constant_23_output_0_output: 0
/model.23/Constant_24_output_0_output: 3c010a14
/model.23/Squeeze_2_output_0_output: 3e810a14
/model.23/cv3.2/cv3.2.0/cv3.2.0.0/act/Mul_output_0: 3d12eda1
/model.23/Add_8_output_0: 3e810a14
/model.23/cv2.2/cv2.2.0/act/Mul_output_0: 3d1116d9
/model.23/Reshape_21_output_0: 3d869343
ONNXTRT_Broadcast_438_output: 3e810a14
/model.23/Reshape_5_output_0: 3de3884b
/model.23/Range_output_0: 3e9d4449
ONNXTRT_ShapeShuffle_153_output: 3c010a14
(Unnamed Layer* 741) [Constant]_output: 0
/model.23/cv4.2/cv4.2.0/act/Sigmoid_output_0: 3c00a066
/model.23/Unsqueeze_13_output_0: 3d993bf8
/model.23/Sub_2_output_0: 3e9d4449
/model.23/ConstantOfShape_2_output_0: 0
ONNXTRT_Broadcast_565_output: 3b810a14
ONNXTRT_Broadcast_262_output: 3b810a14
/model.23/Range_1_output_0: 3e9d4449
ONNXTRT_ShapeShuffle_163_output: 3c010a14
/model.23/Add_7_output_0: 3d993bf8
/model.19/cv2/act/Mul_output_0: 3ce9089a
/model.23/Reshape_3_output_0: 3dd76c2d
/model.23/Constant_25_output_0_output: 3b810a14
ONNXTRT_Broadcast_167_output: 3b810a14
/model.23/Add_output_0: 3e9f4871
ONNXTRT_Broadcast_169_output: 3b810a14
/model.23/Add_1_output_0: 3e9f4871
/model.23/Constant_84_output_0_output: 3c810a14
/model.23/cv4.2/cv4.2.2/Conv_output_0: 3d83c6ad
/model.20/conv/Conv_output_0: 3d7286b0
/model.23/cv4.1/cv4.1.0/conv/Conv_output_0: 3dcbb327
/model.23/cv2.1/cv2.1.0/conv/Conv_output_0: 3d908917
/model.23/cv3.1/cv3.1.0/cv3.1.0.0/conv/Conv_output_0: 3d442f09
(Unnamed Layer* 399) [Constant]_output: 0
ONNXTRT_ShapeShuffle_172_output: 0
/model.23/ConstantOfShape_output_0: 0
/model.23/Unsqueeze_10_output_0: 3e1d4449
/model.22/m.0/cv2/act/Mul_output_0: 3d007c2d
/model.23/Sigmoid_1_output_0: 3c010c4f
/model.23/Reshape_4_output_0: 3df1fc93
/model.23/Reshape_8_output_0: 3e9f4871
/model.23/Reshape_9_output_0: 3e9f4871
/model.20/act/Sigmoid_output_0: 3c00ddeb
/model.23/cv4.1/cv4.1.0/act/Sigmoid_output_0: 3c0184ea
/model.23/cv2.1/cv2.1.0/act/Sigmoid_output_0: 3c0037a4
/model.23/cv3.1/cv3.1.0/cv3.1.0.0/act/Sigmoid_output_0: 3c006f09
/model.23/Squeeze_output_0_output: 3d810a14
ONNXTRT_Broadcast_177_output: 3d810a14
/model.23/Add_2_output_0: 3d810a14
/model.22/m.0/m/m.0/cv1/act/Sigmoid_output_0: 3c175e2b
/model.20/act/Mul_output_0: 3d11a70b
/model.23/cv4.1/cv4.1.0/act/Mul_output_0: 3d232d6f
/model.23/cv2.1/cv2.1.0/act/Mul_output_0: 3d01e172
/model.23/cv3.1/cv3.1.0/cv3.1.0.0/act/Mul_output_0: 3d23c479
/model.23/Concat_4_output_0: 3d869343
/model.22/Split_output_1: 3cd25571
/model.23/Concat_28_output_0: 3e810a14
/model.23/dfl/Reshape_output_0: 3dd6b202
/model.23/Range_3_output_0: 3e193bf8
/model.23/cv3.1/cv3.1.1/cv3.1.1.0/act/Sigmoid_output_0: 3c0abe10
/model.22/Split_output_0: 3cc03131
/model.23/Reshape_18_output_0: 3d993bf8
/model.23/cv3.1/cv3.1.1/cv3.1.1.1/conv/Conv_output_0: 3e5f81a2
/model.22/m.0/cv2/conv/Conv_output_0: 3d37104a
/model.23/Expand_output_0: 3e9f4871
/model.23/Sub_output_0: 3e9e6ca5
ONNXTRT_Broadcast_579_output: 3e810a14
/model.23/Unsqueeze_16_output_0: 3e9f4871
/model.23/Expand_4_output_0: 3d993bf8
/model.23/Transpose_output_0: 3e9f4871
/model.23/Add_12_output_0: 3eb02253
/model.23/Mul_7_output_0: 404dd328
/model.23/Concat_25_output_0: 3d993bf8
/model.23/cv4.2/cv4.2.1/act/Sigmoid_output_0: 3c011157
/model.23/Reshape_19_output_0: 3d993bf8
/model.23/Expand_1_output_0: 3e9f4871
/model.21/Concat_output_0: 3ce887ea
/model.23/cv4.1/cv4.1.1/conv/Conv_output_0: 3dd2db1f
/model.23/cv2.1/cv2.1.1/conv/Conv_output_0: 3e80010e
/model.23/cv3.1/cv3.1.0/cv3.1.0.1/conv/Conv_output_0: 3d414398
/model.23/dfl/Transpose_output_0: 3dd6b202
/model.22/m.0/m/m.1/Add_output_0: 3d8d8c52
/model.23/Transpose_1_output_0: 3e810a14
ONNXTRT_Broadcast_589_output: 3e810a14
/model.23/Expand_5_output_0: 3d993bf8
/model.23/Unsqueeze_11_output_0: 3e1d4449
