TRT-100500-EntropyCalibration2
images: 3b66eddc
/model.0/conv/Conv_output_0: 3dab8de8
/model.0/act/Sigmoid_output_0: 3c010a14
/model.0/act/Mul_output_0: 3d8966ad
/model.1/conv/Conv_output_0: 3e552bda
/model.1/act/Sigmoid_output_0: 3c010a14
/model.1/act/Mul_output_0: 3e0f29cf
/model.2/cv1/conv/Conv_output_0: 3e70309a
/model.2/cv1/act/Sigmoid_output_0: 3c010a14
/model.2/cv1/act/Mul_output_0: 3dc47ad3
/model.23/Concat_29_output_0: 3f22ea5d
/model.23/cv3.2/cv3.2.0/cv3.2.0.0/act/Sigmoid_output_0: 3c01931f
/model.22/m.0/cv1/conv/Conv_output_0: 3ce3fce0
/model.23/Split_1_output_0: 3dbc1f67
/model.23/Expand_4_output_0: 3e1d4449
/model.23/Div_1_output_0: 3f26fe87
/model.2/Split_output_0: 3e19da68
/model.23/cv3.1/cv3.1.1/cv3.1.1.1/conv/Conv_output_0: 3db6f426
/model.23/cv4.2/cv4.2.2/Conv_output_0: 3d99640a
/model.22/m.0/m/m.1/cv2/conv/Conv_output_0: 3db55ea4
/model.2/Split_output_1: 3dc76c46
/model.2/m.0/cv1/conv/Conv_output_0: 3d11b392
/model.2/m.0/cv1/act/Sigmoid_output_0: 3c067c9d
/model.2/m.0/cv1/act/Mul_output_0: 3ce76f32
/model.2/m.0/cv2/conv/Conv_output_0: 3dfa268b
/model.2/m.0/cv2/act/Sigmoid_output_0: 3c010a14
/model.2/m.0/cv2/act/Mul_output_0: 3e0fd05d
/model.2/m.0/Add_output_0: 3e1a0bba
/model.2/Concat_output_0: 3e2024a1
/model.2/cv2/conv/Conv_output_0: 3e8f2f06
/model.2/cv2/act/Sigmoid_output_0: 3c063c35
/model.2/cv2/act/Mul_output_0: 3d29a9a7
/model.3/conv/Conv_output_0: 3d3dc1af
/model.3/act/Sigmoid_output_0: 3bff4d4d
/model.3/act/Mul_output_0: 3cd1b828
/model.4/cv1/conv/Conv_output_0: 3d0fcec5
/model.4/cv1/act/Sigmoid_output_0: 3bf78328
/model.4/cv1/act/Mul_output_0: 3cb1b13a
/model.22/m.0/m/m.1/cv1/act/Mul_output_0: 3c9a1225
/model.23/Reshape_14_output_0: 3e9f4871
ONNXTRT_Broadcast_272_output: 3e010a14
/model.22/cv1/act/Mul_output_0: 3cd4e2a7
/model.23/Add_5_output_0: 3e010a14
/model.23/dfl/Softmax_output: 3bd35681
/model.4/Split_output_0: 3ca52639
/model.23/Split_1_output_1: 3e31072e
/model.23/ConstantOfShape_1_output_0: 0
(Unnamed Layer* 540) [Constant]_output: 0
/model.4/Split_output_1: 3c8ed93d
/model.4/m.0/cv1/conv/Conv_output_0: 3ccbed67
/model.4/m.0/cv1/act/Sigmoid_output_0: 3c030dea
/model.4/m.0/cv1/act/Mul_output_0: 3c909260
/model.4/m.0/cv2/conv/Conv_output_0: 3d1d127f
/model.4/m.0/cv2/act/Sigmoid_output_0: 3c038404
/model.4/m.0/cv2/act/Mul_output_0: 3d0f7d34
/model.4/m.0/Add_output_0: 3d298d17
/model.4/Concat_output_0: 3d24ccf0
/model.4/cv2/conv/Conv_output_0: 3d3f1773
/model.4/cv2/act/Sigmoid_output_0: 3c033ed9
/model.4/cv2/act/Mul_output_0: 3c10ed2d
/model.5/conv/Conv_output_0: 3d326327
/model.5/act/Sigmoid_output_0: 3bfb2794
/model.5/act/Mul_output_0: 3c80001a
/model.6/cv1/conv/Conv_output_0: 3d2fd323
/model.6/cv1/act/Sigmoid_output_0: 3c051129
/model.6/cv1/act/Mul_output_0: 3cb23a95
/model.23/Range_2_output_0: 3e9d4449
ONNXTRT_Broadcast_264_output: 3b810a14
/model.23/Transpose_1_output_0: 3e810a14
ONNXTRT_Broadcast_262_output: 3b810a14
/model.23/cv3.2/cv3.2.0/cv3.2.0.1/conv/Conv_output_0: 3dc26ecd
ONNXTRT_Broadcast_387_output: 3c810a14
/model.6/Split_output_0: 3cb2976b
/model.23/cv3.2/cv3.2.0/cv3.2.0.0/act/Mul_output_0: 3ceced83
/model.23/Slice_output_0: 3dfb45f7
/model.23/Sigmoid_1_output_0: 3c010d9c
/model.6/Split_output_1: 3c99aea2
/model.6/m.0/cv1/conv/Conv_output_0: 3cdede31
/model.6/m.0/cv2/conv/Conv_output_0: 3d2c67b9
/model.6/m.0/cv1/act/Sigmoid_output_0: 3c0e32c1
/model.6/m.0/cv2/act/Sigmoid_output_0: 3c035b59
/model.6/m.0/cv1/act/Mul_output_0: 3cb0009c
/model.6/m.0/cv2/act/Mul_output_0: 3d12cfbe
/model.6/m.0/m/m.0/cv1/conv/Conv_output_0: 3d43ce8b
/model.6/m.0/m/m.0/cv1/act/Sigmoid_output_0: 3c057149
/model.6/m.0/m/m.0/cv1/act/Mul_output_0: 3c9a8e46
/model.6/m.0/m/m.0/cv2/conv/Conv_output_0: 3d367691
/model.6/m.0/m/m.0/cv2/act/Sigmoid_output_0: 3c00082a
/model.6/m.0/m/m.0/cv2/act/Mul_output_0: 3cd0e71a
/model.6/m.0/m/m.0/Add_output_0: 3d074d7b
/model.6/m.0/m/m.1/cv1/conv/Conv_output_0: 3d2e1274
/model.6/m.0/m/m.1/cv1/act/Sigmoid_output_0: 3c029843
/model.6/m.0/m/m.1/cv1/act/Mul_output_0: 3c9a90e1
/model.6/m.0/m/m.1/cv2/conv/Conv_output_0: 3d975d05
/model.6/m.0/m/m.1/cv2/act/Sigmoid_output_0: 3c0111ac
/model.6/m.0/m/m.1/cv2/act/Mul_output_0: 3d91346a
/model.6/m.0/m/m.1/Add_output_0: 3dca126b
/model.6/m.0/Concat_output_0: 3d6de00a
/model.6/m.0/cv3/conv/Conv_output_0: 3d7d8685
/model.6/m.0/cv3/act/Sigmoid_output_0: 3c00fe5c
/model.6/m.0/cv3/act/Mul_output_0: 3ce95495
/model.6/Concat_output_0: 3ce95495
/model.6/cv2/conv/Conv_output_0: 3d3c6261
/model.6/cv2/act/Sigmoid_output_0: 3c0148ad
/model.6/cv2/act/Mul_output_0: 3c7473e7
/model.7/conv/Conv_output_0: 3d5cb481
/model.7/act/Sigmoid_output_0: 3c04dd3c
/model.7/act/Mul_output_0: 3c9bada7
/model.8/cv1/conv/Conv_output_0: 3d8f9de8
/model.8/cv1/act/Sigmoid_output_0: 3c03142f
/model.8/cv1/act/Mul_output_0: 3d02aa17
output0: 40a64410
/model.23/cv4.2/cv4.2.0/act/Sigmoid_output_0: 3c011004
/model.23/Reshape_21_output_0: 3d8a68a4
/model.22/m.0/m/m.0/cv1/act/Mul_output_0: 3c916d7a
/model.23/Expand_5_output_0: 3e1d4449
/model.23/cv3.2/cv3.2.1/cv3.2.1.0/act/Sigmoid_output_0: 3c0068d2
/model.8/Split_output_0: 3ce95778
/model.23/cv4.2/cv4.2.1/act/Sigmoid_output_0: 3c031622
/model.22/m.0/m/m.1/cv1/conv/Conv_output_0: 3d66083f
/model.22/cv2/act/Sigmoid_output_0: 3c00ee86
/model.8/Split_output_1: 3cd4ec5b
/model.8/m.0/cv1/conv/Conv_output_0: 3d32e03b
/model.8/m.0/cv2/conv/Conv_output_0: 3d954445
/model.8/m.0/cv1/act/Sigmoid_output_0: 3c025d2d
/model.8/m.0/cv2/act/Sigmoid_output_0: 3c024e96
/model.8/m.0/cv1/act/Mul_output_0: 3cd29313
/model.8/m.0/cv2/act/Mul_output_0: 3d282d8f
/model.8/m.0/m/m.0/cv1/conv/Conv_output_0: 3d80ead8
/model.8/m.0/m/m.0/cv1/act/Sigmoid_output_0: 3c0109f5
/model.8/m.0/m/m.0/cv1/act/Mul_output_0: 3cc36351
/model.8/m.0/m/m.0/cv2/conv/Conv_output_0: 3d9389c1
/model.8/m.0/m/m.0/cv2/act/Sigmoid_output_0: 3c010daf
/model.8/m.0/m/m.0/cv2/act/Mul_output_0: 3cd10967
/model.8/m.0/m/m.0/Add_output_0: 3d801a75
/model.8/m.0/m/m.1/cv1/conv/Conv_output_0: 3dbe1fbf
/model.8/m.0/m/m.1/cv1/act/Sigmoid_output_0: 3c063bb7
/model.8/m.0/m/m.1/cv1/act/Mul_output_0: 3ce890ca
/model.8/m.0/m/m.1/cv2/conv/Conv_output_0: 3dff82f0
/model.8/m.0/m/m.1/cv2/act/Sigmoid_output_0: 3c010a14
/model.8/m.0/m/m.1/cv2/act/Mul_output_0: 3d93d522
/model.8/m.0/m/m.1/Add_output_0: 3e0f11ef
/model.8/m.0/Concat_output_0: 3d8fe4c2
/model.8/m.0/cv3/conv/Conv_output_0: 3dafe621
/model.8/m.0/cv3/act/Sigmoid_output_0: 3c0111a7
/model.8/m.0/cv3/act/Mul_output_0: 3d26b1a9
/model.8/Concat_output_0: 3d0188b5
/model.8/cv2/conv/Conv_output_0: 3da568a6
/model.8/cv2/act/Sigmoid_output_0: 3c00ee75
/model.8/cv2/act/Mul_output_0: 3d039e8c
/model.9/cv1/conv/Conv_output_0: 3d8dfcfb
/model.9/cv1/act/Sigmoid_output_0: 3c008d4c
/model.9/cv1/act/Mul_output_0: 3d65770a
/model.9/m/MaxPool_output_0: 3d65770a
/model.9/m_1/MaxPool_output_0: 3d65770a
/model.9/m_2/MaxPool_output_0: 3d65770a
/model.9/Concat_output_0: 3d90d2ed
/model.9/cv2/conv/Conv_output_0: 3d4e8685
/model.9/cv2/act/Sigmoid_output_0: 3bffd894
/model.9/cv2/act/Mul_output_0: 3c6696f0
/model.10/cv1/conv/Conv_output_0: 3d9129cf
/model.10/cv1/act/Sigmoid_output_0: 3c00e9a2
/model.10/cv1/act/Mul_output_0: 3d01fa82
/model.22/m.0/m/m.1/cv1/act/Sigmoid_output_0: 3c0123f0
/model.22/m.0/cv1/act/Sigmoid_output_0: 3bd85895
/model.23/Mul_6_output_0: 3db94400
/model.22/m.0/m/m.1/cv2/act/Sigmoid_output_0: 3c0213be
/model.23/Unsqueeze_11_output_0: 3e9f4871
/model.23/cv4.2/cv4.2.1/act/Mul_output_0: 3d6742ba
/model.10/Split_output_0: 3d104861
/model.23/cv2.2/cv2.2.0/conv/Conv_output_0: 3d87d453
ONNXTRT_ShapeShuffle_249_output: 3c010a14
/model.23/cv3.2/cv3.2.1/cv3.2.1.0/act/Mul_output_0: 3d63602f
/model.10/Split_output_1: 3d01c1f1
/model.23/Range_3_output_0: 3e9d4449
/model.23/cv3.2/cv3.2.0/cv3.2.0.1/act/Mul_output_0: 3d0273aa
/model.10/m/m.0/attn/qkv/conv/Conv_output_0: 3d6ff09a
/model.23/Add_4_output_0: 3e9f4871
/model.23/Expand_2_output_0: 3e9f4871
/model.22/m.0/cv2/act/Mul_output_0: 3cff335d
/model.22/m.0/m/m.0/cv2/conv/Conv_output_0: 3d5d2123
/model.22/m.0/m/m.0/cv1/conv/Conv_output_0: 3d3d42fd
/model.23/Constant_84_output_0_output: 3c810a14
/model.22/m.0/cv1/act/Mul_output_0: 3c0ff1d5
/model.22/cv2/act/Mul_output_0: 3c99ae2d
/model.22/m.0/m/m.0/Add_output_0: 3d406c86
/model.22/m.0/cv3/conv/Conv_output_0: 3db7d383
/model.23/Add_3_output_0: 3e9f4871
/model.23/cv3.2/cv3.2.2/Conv_output_0: 3e7d08b9
/model.23/Concat_4_output_0: 3d8a68a4
/model.23/cv2.2/cv2.2.0/act/Mul_output_0: 3d11f853
/model.23/cv3.1/cv3.1.1/cv3.1.1.1/act/Mul_output_0: 3d6b6362
/model.10/m/m.0/attn/Reshape_output_0: 3d6ff09a
/model.23/cv2.1/cv2.1.1/act/Sigmoid_output_0: 3c010a14
/model.23/Reshape_2_output_0: 3d99640a
/model.23/Concat_20_output_0: 3e9f4871
/model.22/cv2/conv/Conv_output_0: 3da7b968
/model.23/cv3.1/cv3.1.1/cv3.1.1.0/act/Mul_output_0: 3d0f85e6
/model.22/m.0/cv2/conv/Conv_output_0: 3d37fda3
/model.10/m/m.0/attn/Split_output_0: 3d462f77
/model.23/Concat_27_output_0: 3f204a85
/model.22/m.0/m/m.1/cv2/act/Mul_output_0: 3d6ca8bc
/model.23/cv3.1/cv3.1.2/Conv_output_0: 3e2ea55c
/model.10/m/m.0/attn/Split_output_1: 3d2d07ed
/model.22/m.0/Concat_output_0: 3d93f78e
/model.22/m.0/cv2/act/Sigmoid_output_0: 3c03ad2d
/model.23/Unsqueeze_13_output_0: 3e1d4449
/model.10/m/m.0/attn/Split_output_2: 3d6fb01d
/model.10/m/m.0/attn/Transpose_output_0: 3d462f77
/model.10/m/m.0/attn/Reshape_2_output_0: 3d6fb01d
/model.10/m/m.0/attn/MatMul_output_0: 3f1e5e4a
/model.10/m/m.0/attn/pe/conv/Conv_output_0: 3d631ea6
/model.10/m/m.0/attn/Constant_6_output_0_output: 3ab67d3d
ONNXTRT_Broadcast_output: 3ab67d3d
/model.10/m/m.0/attn/Mul_1_output_0: 3ddff774
/model.10/m/m.0/attn/Softmax_output: 3a147c71
/model.10/m/m.0/attn/Softmax_output_0: 3a147c71
/model.23/dfl/conv/Conv_output_0: 3dfb45f7
/model.23/cv3.1/cv3.1.1/cv3.1.1.0/act/Sigmoid_output_0: 3c00bc2d
/model.10/m/m.0/attn/Transpose_1_output_0: 3a147c71
/model.10/m/m.0/attn/MatMul_1_output_0: 3d1ee6e5
/model.10/m/m.0/attn/Reshape_1_output_0: 3d1ee6e5
/model.10/m/m.0/attn/Add_output_0: 3d20689c
/model.10/m/m.0/attn/proj/conv/Conv_output_0: 3d1d5b41
/model.10/m/m.0/Add_output_0: 3d6dcf9f
/model.10/m/m.0/ffn/ffn.0/conv/Conv_output_0: 3d6603c9
/model.10/m/m.0/ffn/ffn.0/act/Sigmoid_output_0: 3c00f1b9
/model.10/m/m.0/ffn/ffn.0/act/Mul_output_0: 3cd4e897
/model.10/m/m.0/ffn/ffn.1/conv/Conv_output_0: 3cff2f6d
/model.10/m/m.0/Add_1_output_0: 3d6991b3
/model.10/Concat_output_0: 3d423fd6
/model.10/cv2/conv/Conv_output_0: 3d82773f
/model.10/cv2/act/Sigmoid_output_0: 3c00c9e5
/model.10/cv2/act/Mul_output_0: 3c90e788
/model.11/Resize_output_0: 3c90e788
/model.12/Concat_output_0: 3c90e788
/model.13/cv1/conv/Conv_output_0: 3d5f08c4
/model.13/cv1/act/Sigmoid_output_0: 3c008e27
/model.13/cv1/act/Mul_output_0: 3cc321a5
/model.23/cv3.2/cv3.2.1/cv3.2.1.0/conv/Conv_output_0: 3da6e00b
/model.23/Slice_2_output_0: 3d394400
/model.23/cv3.2/cv3.2.1/cv3.2.1.1/conv/Conv_output_0: 3e0a4883
/model.23/cv3.2/cv3.2.0/cv3.2.0.1/act/Sigmoid_output_0: 3c03f7c5
/model.23/Reshape_1_output_0: 3d44e78c
/model.23/cv2.1/cv2.1.2/Conv_output_0: 3daa5ae6
/model.13/Split_output_0: 3cea0a7e
/model.23/cv4.1/cv4.1.2/Conv_output_0: 3d44e78c
/model.23/Reshape_10_output_0: 3f204a85
/model.23/cv4.1/cv4.1.1/act/Mul_output_0: 3d6c9a21
/model.13/Split_output_1: 3c88d726
/model.13/m.0/cv1/conv/Conv_output_0: 3d57769c
/model.13/m.0/cv1/act/Sigmoid_output_0: 3c00cad5
/model.13/m.0/cv1/act/Mul_output_0: 3c9b6187
/model.13/m.0/cv2/conv/Conv_output_0: 3dd712c7
/model.13/m.0/cv2/act/Sigmoid_output_0: 3c00ebc8
/model.13/m.0/cv2/act/Mul_output_0: 3d437288
/model.13/m.0/Add_output_0: 3d8f9f77
/model.13/Concat_output_0: 3d006ad7
/model.13/cv2/conv/Conv_output_0: 3d6b94c4
/model.13/cv2/act/Sigmoid_output_0: 3c007785
/model.13/cv2/act/Mul_output_0: 3c517e3a
/model.14/Resize_output_0: 3c517e3a
/model.15/Concat_output_0: 3c517e3a
/model.16/cv1/conv/Conv_output_0: 3d5494cb
/model.16/cv1/act/Sigmoid_output_0: 3c009d3a
/model.16/cv1/act/Mul_output_0: 3cb108b8
/model.23/cv3.1/cv3.1.0/cv3.1.0.1/act/Sigmoid_output_0: 3c01d25d
/model.23/Reshape_22_output_0: 40a4fb71
/model.22/m.0/m/m.1/Add_output_0: 3da7b22a
/model.23/cv2.2/cv2.2.1/act/Sigmoid_output_0: 3c010a14
/model.23/Concat_31_output_0: 40a4fb71
ONNXTRT_Broadcast_565_output: 3b810a14
/model.16/Split_output_0: 3ce63ceb
/model.23/cv2.2/cv2.2.2/Conv_output_0: 3dc4c3ee
/model.23/dfl/Reshape_1_output_0: 3dfb45f7
/model.22/m.0/m/m.0/cv2/act/Sigmoid_output_0: 3c1075b8
/model.16/Split_output_1: 3c67cb2e
/model.16/m.0/cv1/conv/Conv_output_0: 3d5b93f1
/model.16/m.0/cv1/act/Sigmoid_output_0: 3c01002d
/model.16/m.0/cv1/act/Mul_output_0: 3cb1391c
/model.16/m.0/cv2/conv/Conv_output_0: 3d8e3c09
/model.16/m.0/cv2/act/Sigmoid_output_0: 3c011174
/model.16/m.0/cv2/act/Mul_output_0: 3d276bca
/model.16/m.0/Add_output_0: 3d79da31
/model.16/Concat_output_0: 3d1452f0
/model.16/cv2/conv/Conv_output_0: 3d9578cf
/model.16/cv2/act/Sigmoid_output_0: 3c007031
/model.16/cv2/act/Mul_output_0: 3cd48a22
/model.17/conv/Conv_output_0: 3d505049
/model.23/dfl/Transpose_output_0: 3dbc1f67
/model.23/cv3.1/cv3.1.1/cv3.1.1.0/conv/Conv_output_0: 3d26b97b
/model.23/cv4.0/cv4.0.0/conv/Conv_output_0: 3dce64ef
/model.23/cv2.0/cv2.0.0/conv/Conv_output_0: 3d6c3b84
/model.23/cv3.0/cv3.0.0/cv3.0.0.0/conv/Conv_output_0: 3cece8bb
/model.17/act/Sigmoid_output_0: 3c00d186
/model.23/cv3.1/cv3.1.0/cv3.1.0.1/act/Mul_output_0: 3cd3eab8
/model.23/cv4.0/cv4.0.0/act/Sigmoid_output_0: 3c00f0e0
/model.23/cv2.0/cv2.0.0/act/Sigmoid_output_0: 3c00fd9d
/model.23/cv3.0/cv3.0.0/cv3.0.0.0/act/Sigmoid_output_0: 3c038df1
/model.17/act/Mul_output_0: 3c907320
/model.23/cv4.0/cv4.0.0/act/Mul_output_0: 3d439f52
/model.23/cv3.2/cv3.2.1/cv3.2.1.1/act/Sigmoid_output_0: 3c010a14
/model.23/cv2.0/cv2.0.0/act/Mul_output_0: 3ca5b1f8
/model.23/cv3.0/cv3.0.0/cv3.0.0.0/act/Mul_output_0: 3ce5c0a1
/model.18/Concat_output_0: 3ca4aa83
/model.23/cv4.0/cv4.0.1/conv/Conv_output_0: 3dac4c7a
/model.23/Slice_3_output_0: 3d8e0c9b
/model.23/cv2.2/cv2.2.1/act/Mul_output_0: 3e19c887
/model.23/cv4.2/cv4.2.0/act/Mul_output_0: 3d683e7f
/model.23/cv2.0/cv2.0.1/conv/Conv_output_0: 3e39b47e
/model.23/cv3.0/cv3.0.0/cv3.0.0.1/conv/Conv_output_0: 3d0bb025
/model.23/Unsqueeze_16_output_0: 3f204a85
/model.23/cv4.2/cv4.2.0/conv/Conv_output_0: 3d9a68b2
/model.23/cv2.2/cv2.2.0/act/Sigmoid_output_0: 3c00fe78
/model.19/cv1/conv/Conv_output_0: 3d81cbd8
/model.23/cv4.0/cv4.0.1/act/Sigmoid_output_0: 3c00f11b
/model.23/cv2.0/cv2.0.1/act/Sigmoid_output_0: 3c010a14
/model.23/cv3.0/cv3.0.0/cv3.0.0.1/act/Sigmoid_output_0: 3bfdb151
/model.19/cv1/act/Sigmoid_output_0: 3c001e05
/model.23/cv4.0/cv4.0.1/act/Mul_output_0: 3d67cf73
/model.23/cv2.0/cv2.0.1/act/Mul_output_0: 3d92e249
/model.23/cv3.0/cv3.0.0/cv3.0.0.1/act/Mul_output_0: 3c911b41
/model.19/cv1/act/Mul_output_0: 3ca43991
/model.23/cv4.0/cv4.0.2/Conv_output_0: 3d394400
/model.23/cv2.0/cv2.0.2/Conv_output_0: 3dbb5375
/model.23/cv3.0/cv3.0.1/cv3.0.1.0/conv/Conv_output_0: 3d5516a5
/model.23/Mul_7_output_0: 40a4fb71
/model.23/cv4.2/cv4.2.1/conv/Conv_output_0: 3de1c673
/model.23/Unsqueeze_8_output_0: 3f204a85
/model.23/Reshape_4_output_0: 3e170306
/model.23/cv4.1/cv4.1.1/act/Sigmoid_output_0: 3c00f0f7
ONNXTRT_ShapeShuffle_259_output: 3c010a14
/model.19/Split_output_0: 3ca43991
/model.23/cv2.1/cv2.1.1/act/Mul_output_0: 3dd2fbd8
/model.23/cv3.2/cv3.2.1/cv3.2.1.1/act/Mul_output_0: 3d6714ff
/model.23/Unsqueeze_7_output_0: 3f204a85
/model.19/Split_output_1: 3c900e3e
/model.23/Reshape_output_0: 3d394400
/model.23/cv3.0/cv3.0.1/cv3.0.1.0/act/Sigmoid_output_0: 3c0f7662
/model.19/m.0/cv1/conv/Conv_output_0: 3d44e496
/model.23/cv3.0/cv3.0.1/cv3.0.1.0/act/Mul_output_0: 3d252851
/model.19/m.0/cv1/act/Sigmoid_output_0: 3c00db13
/model.23/cv3.0/cv3.0.1/cv3.0.1.1/conv/Conv_output_0: 3da2f8f4
/model.19/m.0/cv1/act/Mul_output_0: 3cd15929
/model.23/cv3.0/cv3.0.1/cv3.0.1.1/act/Sigmoid_output_0: 3c0111d9
/model.19/m.0/cv2/conv/Conv_output_0: 3d8f2b84
/model.23/cv3.0/cv3.0.1/cv3.0.1.1/act/Mul_output_0: 3d434d09
/model.19/m.0/cv2/act/Sigmoid_output_0: 3c00e49c
/model.23/cv3.0/cv3.0.2/Conv_output_0: 3e152d75
/model.19/m.0/cv2/act/Mul_output_0: 3d11d5d6
/model.23/Concat_5_output_0: 3e089870
/model.19/m.0/Add_output_0: 3d7c9815
/model.23/Range_4_output_0: 3e193bf8
ONNXTRT_ShapeShuffle_413_output: 3c010a14
/model.19/Concat_output_0: 3d1327b4
/model.23/Unsqueeze_10_output_0: 3e9f4871
/model.23/Mul_5_output_0: 40acc86c
/model.23/Slice_1_output_0: 3dca0e80
/model.19/cv2/conv/Conv_output_0: 3d84894c
ONNXTRT_Broadcast_589_output: 3e810a14
/model.23/Add_12_output_0: 3f216c29
/model.22/cv1/conv/Conv_output_0: 3d64d242
/model.22/cv1/act/Sigmoid_output_0: 3c003d94
/model.19/cv2/act/Sigmoid_output_0: 3c00892f
/model.23/Sub_2_output_0: 3f1f4871
/model.23/Squeeze_1_output_0_output: 3e010a14
/model.23/Constant_23_output_0_output: 0
/model.23/Constant_24_output_0_output: 3c010a14
/model.23/cv2.2/cv2.2.1/conv/Conv_output_0: 3e6f88b9
/model.23/dfl/Softmax_output_0: 3bd35681
/model.23/Reshape_13_output_0: 3e9f4871
/model.23/Add_7_output_0: 3e1d4449
/model.23/Unsqueeze_14_output_0: 3e1d4449
/model.23/Concat_7_output_0: 3e2a3716
ONNXTRT_ShapeShuffle_267_output: 0
/model.23/Range_output_0: 3f1f4871
ONNXTRT_ShapeShuffle_153_output: 3c010a14
/model.22/Split_output_0: 3cd4e2a7
/model.22/m.0/cv3/act/Sigmoid_output_0: 3c00d635
/model.23/Sigmoid_output_0: 3a854e55
ONNXTRT_ShapeShuffle_423_output: 3c010a14
ONNXTRT_Broadcast_426_output: 3b810a14
/model.23/Add_6_output_0: 3e1d4449
ONNXTRT_Broadcast_428_output: 3b810a14
/model.23/Range_1_output_0: 3f1f4871
ONNXTRT_ShapeShuffle_163_output: 3c010a14
/model.23/Range_5_output_0: 3e193bf8
/model.19/cv2/act/Mul_output_0: 3cd3361a
/model.23/Reshape_3_output_0: 3e089870
/model.23/Constant_25_output_0_output: 3b810a14
ONNXTRT_Broadcast_167_output: 3b810a14
/model.23/Add_output_0: 3f204a85
ONNXTRT_Broadcast_169_output: 3b810a14
/model.23/Add_1_output_0: 3f204a85
/model.23/Concat_25_output_0: 3e1d4449
/model.23/Concat_15_output_0: 3f204a85
/model.20/conv/Conv_output_0: 3d6302d1
/model.23/cv4.1/cv4.1.0/conv/Conv_output_0: 3ddf1082
/model.23/cv2.1/cv2.1.0/conv/Conv_output_0: 3d7cd571
/model.23/cv3.1/cv3.1.0/cv3.1.0.0/conv/Conv_output_0: 3d636c32
(Unnamed Layer* 399) [Constant]_output: 0
ONNXTRT_ShapeShuffle_172_output: 0
/model.23/ConstantOfShape_output_0: 0
(Unnamed Layer* 741) [Constant]_output: 0
ONNXTRT_ShapeShuffle_431_output: 0
/model.23/ConstantOfShape_2_output_0: 0
/model.23/cv3.2/cv3.2.0/cv3.2.0.0/conv/Conv_output_0: 3d29d5d5
/model.23/Reshape_8_output_0: 3f204a85
/model.23/Reshape_9_output_0: 3f204a85
/model.20/act/Sigmoid_output_0: 3c008bea
/model.23/cv4.1/cv4.1.0/act/Sigmoid_output_0: 3c00a464
/model.23/cv2.1/cv2.1.0/act/Sigmoid_output_0: 3c007af7
/model.23/cv3.1/cv3.1.0/cv3.1.0.0/act/Sigmoid_output_0: 3c02556a
/model.23/Squeeze_output_0_output: 3d810a14
ONNXTRT_Broadcast_177_output: 3d810a14
/model.23/Add_2_output_0: 3d810a14
/model.23/Concat_6_output_0: 3e170306
/model.20/act/Mul_output_0: 3d022e2e
/model.23/cv4.1/cv4.1.0/act/Mul_output_0: 3d25f204
/model.23/cv2.1/cv2.1.0/act/Mul_output_0: 3cb15468
/model.23/cv3.1/cv3.1.0/cv3.1.0.0/act/Mul_output_0: 3d0f3c13
/model.23/Reshape_18_output_0: 3e1d4449
/model.23/Reshape_19_output_0: 3e1d4449
/model.22/Concat_output_0: 3cd4de2b
/model.23/Add_10_output_0: 3f2beadc
/model.23/Squeeze_2_output_0_output: 3e810a14
/model.23/Sub_output_0: 3f21cbd5
/model.23/Add_8_output_0: 3e810a14
/model.22/Split_output_1: 3cb112dc
ONNXTRT_Broadcast_572_output: 3f1f4871
/model.23/Reshape_20_output_0: 3e1d4449
/model.23/Expand_output_0: 3f204a85
/model.23/dfl/Reshape_output_0: 3dbc1f67
/model.23/Concat_11_output_0: 3e09a423
/model.22/m.0/cv3/act/Mul_output_0: 3d016478
ONNXTRT_Broadcast_438_output: 3e810a14
/model.23/Add_11_output_0: 3fa6fe87
/model.23/Concat_28_output_0: 3e810a14
ONNXTRT_Broadcast_581_output: 3c810a14
/model.23/Sub_1_output_0: 3e579e14
ONNXTRT_Broadcast_579_output: 3e810a14
/model.23/Transpose_output_0: 3f204a85
/model.23/Expand_1_output_0: 3f204a85
/model.21/Concat_output_0: 3cd572ed
/model.23/cv4.1/cv4.1.1/conv/Conv_output_0: 3da73152
/model.23/cv2.1/cv2.1.1/conv/Conv_output_0: 3e559717
/model.23/cv3.1/cv3.1.0/cv3.1.0.1/conv/Conv_output_0: 3d273c12
/model.22/m.0/m/m.0/cv1/act/Sigmoid_output_0: 3bfc2458
/model.23/Reshape_5_output_0: 3e2a3716
/model.22/m.0/m/m.0/cv2/act/Mul_output_0: 3ce7e492
/model.23/Expand_3_output_0: 3e9f4871
/model.23/Reshape_15_output_0: 3e9f4871
/model.23/cv3.1/cv3.1.1/cv3.1.1.1/act/Sigmoid_output_0: 3c0111b5
